0000000100000002000000030000000400000005000000060000000700000008000000090000000a0000000b0000000c0000000d0000000e0000000f000000100000001100000012000000130000001400000015000000160000001700000018000000190000001a0000001b0000001c0000001d0000001e0000001f00000020
000000020000000400000006000000080000000a0000000c0000000e00000010000000120000001400000016000000180000001a0000001c0000001e00000020000000220000002400000026000000280000002a0000002c0000002e00000030000000320000003400000036000000380000003a0000003c0000003e00000040
0000000300000006000000090000000c0000000f0000001200000015000000180000001b0000001e0000002100000024000000270000002a0000002d000000300000003300000036000000390000003c0000003f0000004200000045000000480000004b0000004e0000005100000054000000570000005a0000005d00000060
00000004000000080000000c0000001000000014000000180000001c0000002000000024000000280000002c0000003000000034000000380000003c0000004000000044000000480000004c0000005000000054000000580000005c0000006000000064000000680000006c0000007000000074000000780000007c00000080
000000050000000a0000000f00000014000000190000001e00000023000000280000002d00000032000000370000003c00000041000000460000004b00000050000000550000005a0000005f00000064000000690000006e00000073000000780000007d00000082000000870000008c00000091000000960000009b000000a0
000000060000000c00000012000000180000001e000000240000002a00000030000000360000003c00000042000000480000004e000000540000005a00000060000000660000006c00000072000000780000007e000000840000008a00000090000000960000009c000000a2000000a8000000ae000000b4000000ba000000c0
000000070000000e000000150000001c000000230000002a00000031000000380000003f000000460000004d000000540000005b000000620000006900000070000000770000007e000000850000008c000000930000009a000000a1000000a8000000af000000b6000000bd000000c4000000cb000000d2000000d9000000e0
00000008000000100000001800000020000000280000003000000038000000400000004800000050000000580000006000000068000000700000007800000080000000880000009000000098000000a0000000a8000000b0000000b8000000c0000000c8000000d0000000d8000000e0000000e8000000f0000000f800000100
00000009000000120000001b000000240000002d000000360000003f00000048000000510000005a000000630000006c000000750000007e000000870000009000000099000000a2000000ab000000b4000000bd000000c6000000cf000000d8000000e1000000ea000000f3000000fc000001050000010e0000011700000120
0000000a000000140000001e00000028000000320000003c00000046000000500000005a000000640000006e00000078000000820000008c00000096000000a0000000aa000000b4000000be000000c8000000d2000000dc000000e6000000f0000000fa000001040000010e00000118000001220000012c0000013600000140
0000000b00000016000000210000002c00000037000000420000004d00000058000000630000006e00000079000000840000008f0000009a000000a5000000b0000000bb000000c6000000d1000000dc000000e7000000f2000000fd00000108000001130000011e00000129000001340000013f0000014a0000015500000160
0000000c0000001800000024000000300000003c0000004800000054000000600000006c0000007800000084000000900000009c000000a8000000b4000000c0000000cc000000d8000000e4000000f0000000fc0000010800000114000001200000012c0000013800000144000001500000015c000001680000017400000180
0000000d0000001a0000002700000034000000410000004e0000005b0000006800000075000000820000008f0000009c000000a9000000b6000000c3000000d0000000dd000000ea000000f700000104000001110000011e0000012b0000013800000145000001520000015f0000016c000001790000018600000193000001a0
0000000e0000001c0000002a00000038000000460000005400000062000000700000007e0000008c0000009a000000a8000000b6000000c4000000d2000000e0000000ee000000fc0000010a00000118000001260000013400000142000001500000015e0000016c0000017a0000018800000196000001a4000001b2000001c0
0000000f0000001e0000002d0000003c0000004b0000005a00000069000000780000008700000096000000a5000000b4000000c3000000d2000000e1000000f0000000ff0000010e0000011d0000012c0000013b0000014a0000015900000168000001770000018600000195000001a4000001b3000001c2000001d1000001e0
000000100000002000000030000000400000005000000060000000700000008000000090000000a0000000b0000000c0000000d0000000e0000000f000000100000001100000012000000130000001400000015000000160000001700000018000000190000001a0000001b0000001c0000001d0000001e0000001f000000200
000000110000002200000033000000440000005500000066000000770000008800000099000000aa000000bb000000cc000000dd000000ee000000ff000001100000012100000132000001430000015400000165000001760000018700000198000001a9000001ba000001cb000001dc000001ed000001fe0000020f00000220
000000120000002400000036000000480000005a0000006c0000007e00000090000000a2000000b4000000c6000000d8000000ea000000fc0000010e00000120000001320000014400000156000001680000017a0000018c0000019e000001b0000001c2000001d4000001e6000001f80000020a0000021c0000022e00000240
0000001300000026000000390000004c0000005f000000720000008500000098000000ab000000be000000d1000000e4000000f70000010a0000011d000001300000014300000156000001690000017c0000018f000001a2000001b5000001c8000001db000001ee0000020100000214000002270000023a0000024d00000260
00000014000000280000003c0000005000000064000000780000008c000000a0000000b4000000c8000000dc000000f000000104000001180000012c0000014000000154000001680000017c00000190000001a4000001b8000001cc000001e0000001f4000002080000021c0000023000000244000002580000026c00000280
000000150000002a0000003f00000054000000690000007e00000093000000a8000000bd000000d2000000e7000000fc00000111000001260000013b00000150000001650000017a0000018f000001a4000001b9000001ce000001e3000001f80000020d00000222000002370000024c00000261000002760000028b000002a0
000000160000002c00000042000000580000006e000000840000009a000000b0000000c6000000dc000000f2000001080000011e000001340000014a00000160000001760000018c000001a2000001b8000001ce000001e4000001fa00000210000002260000023c00000252000002680000027e00000294000002aa000002c0
000000170000002e000000450000005c000000730000008a000000a1000000b8000000cf000000e6000000fd000001140000012b000001420000015900000170000001870000019e000001b5000001cc000001e3000001fa00000211000002280000023f000002560000026d000002840000029b000002b2000002c9000002e0
000000180000003000000048000000600000007800000090000000a8000000c0000000d8000000f00000108000001200000013800000150000001680000018000000198000001b0000001c8000001e0000001f80000021000000228000000240000002580000027000000288000002a0000002b8000002d0000002e800000300
00000019000000320000004b000000640000007d00000096000000af000000c8000000e1000000fa000001130000012c000001450000015e0000017700000190000001a9000001c2000001db000001f40000020d000002260000023f00000258000002710000028a000002a3000002bc000002d5000002ee0000030700000320
0000001a000000340000004e00000068000000820000009c000000b6000000d0000000ea000001040000011e00000138000001520000016c00000186000001a0000001ba000001d4000001ee00000208000002220000023c00000256000002700000028a000002a4000002be000002d8000002f20000030c0000032600000340
0000001b00000036000000510000006c00000087000000a2000000bd000000d8000000f30000010e00000129000001440000015f0000017a00000195000001b0000001cb000001e6000002010000021c00000237000002520000026d00000288000002a3000002be000002d9000002f40000030f0000032a0000034500000360
0000001c0000003800000054000000700000008c000000a8000000c4000000e0000000fc0000011800000134000001500000016c00000188000001a4000001c0000001dc000001f800000214000002300000024c0000026800000284000002a0000002bc000002d8000002f4000003100000032c000003480000036400000380
0000001d0000003a000000570000007400000091000000ae000000cb000000e800000105000001220000013f0000015c0000017900000196000001b3000001d0000001ed0000020a0000022700000244000002610000027e0000029b000002b8000002d5000002f20000030f0000032c000003490000036600000383000003a0
0000001e0000003c0000005a0000007800000096000000b4000000d2000000f00000010e0000012c0000014a0000016800000186000001a4000001c2000001e0000001fe0000021c0000023a000002580000027600000294000002b2000002d0000002ee0000030c0000032a000003480000036600000384000003a2000003c0
0000001f0000003e0000005d0000007c0000009b000000ba000000d9000000f80000011700000136000001550000017400000193000001b2000001d1000001f00000020f0000022e0000024d0000026c0000028b000002aa000002c9000002e80000030700000326000003450000036400000383000003a2000003c1000003e0
00000020000000400000006000000080000000a0000000c0000000e00000010000000120000001400000016000000180000001a0000001c0000001e00000020000000220000002400000026000000280000002a0000002c0000002e00000030000000320000003400000036000000380000003a0000003c0000003e000000400
00000021000000420000006300000084000000a5000000c6000000e700000108000001290000014a0000016b0000018c000001ad000001ce000001ef0000021000000231000002520000027300000294000002b5000002d6000002f700000318000003390000035a0000037b0000039c000003bd000003de000003ff00000420
00000022000000440000006600000088000000aa000000cc000000ee0000011000000132000001540000017600000198000001ba000001dc000001fe00000220000002420000026400000286000002a8000002ca000002ec0000030e00000330000003520000037400000396000003b8000003da000003fc0000041e00000440
0000002300000046000000690000008c000000af000000d2000000f5000001180000013b0000015e00000181000001a4000001c7000001ea0000020d00000230000002530000027600000299000002bc000002df0000030200000325000003480000036b0000038e000003b1000003d4000003f70000041a0000043d00000460
00000024000000480000006c00000090000000b4000000d8000000fc0000012000000144000001680000018c000001b0000001d4000001f80000021c000002400000026400000288000002ac000002d0000002f4000003180000033c0000036000000384000003a8000003cc000003f000000414000004380000045c00000480
000000250000004a0000006f00000094000000b9000000de00000103000001280000014d0000017200000197000001bc000001e1000002060000022b00000250000002750000029a000002bf000002e4000003090000032e00000353000003780000039d000003c2000003e70000040c00000431000004560000047b000004a0
000000260000004c0000007200000098000000be000000e40000010a00000130000001560000017c000001a2000001c8000001ee000002140000023a0000026000000286000002ac000002d2000002f80000031e000003440000036a00000390000003b6000003dc00000402000004280000044e000004740000049a000004c0
000000270000004e000000750000009c000000c3000000ea00000111000001380000015f00000186000001ad000001d4000001fb00000222000002490000027000000297000002be000002e50000030c000003330000035a00000381000003a8000003cf000003f60000041d000004440000046b00000492000004b9000004e0
000000280000005000000078000000a0000000c8000000f000000118000001400000016800000190000001b8000001e000000208000002300000025800000280000002a8000002d0000002f800000320000003480000037000000398000003c0000003e800000410000004380000046000000488000004b0000004d800000500
00000029000000520000007b000000a4000000cd000000f60000011f00000148000001710000019a000001c3000001ec000002150000023e0000026700000290000002b9000002e20000030b000003340000035d00000386000003af000003d8000004010000042a000004530000047c000004a5000004ce000004f700000520
0000002a000000540000007e000000a8000000d2000000fc00000126000001500000017a000001a4000001ce000001f8000002220000024c00000276000002a0000002ca000002f40000031e00000348000003720000039c000003c6000003f00000041a000004440000046e00000498000004c2000004ec0000051600000540
0000002b0000005600000081000000ac000000d7000001020000012d0000015800000183000001ae000001d9000002040000022f0000025a00000285000002b0000002db00000306000003310000035c00000387000003b2000003dd00000408000004330000045e00000489000004b4000004df0000050a0000053500000560
0000002c0000005800000084000000b0000000dc0000010800000134000001600000018c000001b8000001e4000002100000023c0000026800000294000002c0000002ec0000031800000344000003700000039c000003c8000003f4000004200000044c00000478000004a4000004d0000004fc000005280000055400000580
0000002d0000005a00000087000000b4000000e10000010e0000013b0000016800000195000001c2000001ef0000021c0000024900000276000002a3000002d0000002fd0000032a0000035700000384000003b1000003de0000040b000004380000046500000492000004bf000004ec000005190000054600000573000005a0
0000002e0000005c0000008a000000b8000000e60000011400000142000001700000019e000001cc000001fa000002280000025600000284000002b2000002e00000030e0000033c0000036a00000398000003c6000003f400000422000004500000047e000004ac000004da00000508000005360000056400000592000005c0
0000002f0000005e0000008d000000bc000000eb0000011a0000014900000178000001a7000001d600000205000002340000026300000292000002c1000002f00000031f0000034e0000037d000003ac000003db0000040a000004390000046800000497000004c6000004f5000005240000055300000582000005b1000005e0
000000300000006000000090000000c0000000f0000001200000015000000180000001b0000001e0000002100000024000000270000002a0000002d000000300000003300000036000000390000003c0000003f0000004200000045000000480000004b0000004e0000005100000054000000570000005a0000005d000000600
000000310000006200000093000000c4000000f5000001260000015700000188000001b9000001ea0000021b0000024c0000027d000002ae000002df000003100000034100000372000003a3000003d400000405000004360000046700000498000004c9000004fa0000052b0000055c0000058d000005be000005ef00000620
000000320000006400000096000000c8000000fa0000012c0000015e00000190000001c2000001f400000226000002580000028a000002bc000002ee000003200000035200000384000003b6000003e80000041a0000044c0000047e000004b0000004e2000005140000054600000578000005aa000005dc0000060e00000640
000000330000006600000099000000cc000000ff000001320000016500000198000001cb000001fe000002310000026400000297000002ca000002fd000003300000036300000396000003c9000003fc0000042f0000046200000495000004c8000004fb0000052e0000056100000594000005c7000005fa0000062d00000660
00000034000000680000009c000000d000000104000001380000016c000001a0000001d4000002080000023c00000270000002a4000002d80000030c0000034000000374000003a8000003dc000004100000044400000478000004ac000004e000000514000005480000057c000005b0000005e4000006180000064c00000680
000000350000006a0000009f000000d4000001090000013e00000173000001a8000001dd00000212000002470000027c000002b1000002e60000031b0000035000000385000003ba000003ef00000424000004590000048e000004c3000004f80000052d0000056200000597000005cc00000601000006360000066b000006a0
000000360000006c000000a2000000d80000010e000001440000017a000001b0000001e60000021c0000025200000288000002be000002f40000032a0000036000000396000003cc000004020000043800000046e000004a4000004da00000510000005460000057c000005b2000005e80000061e000006540000068a000006c0
000000370000006e000000a5000000dc000001130000014a00000181000001b8000001ef000002260000025d00000294000002cb000003020000033900000370000003a7000003de000004150000044c000000483000004ba000004f1000005280000055f00000596000005cd000006040000063b00000672000006a9000006e0
0000003800000070000000a8000000e0000001180000015000000188000001c0000001f80000023000000268000002a0000002d8000003100000034800000380000003b8000003f0000004280000046000000498000004d0000005080000054000000578000005b0000005e8000006200000065800000690000006c800000700
0000003900000072000000ab000000e40000011d000001560000018f000001c8000002010000023a00000273000002ac000002e50000031e0000035700000390000003c9000004020000043b000004740000004ad000004e60000051f0000055800000591000005ca000006030000063c00000675000006ae000006e700000720
0000003a00000074000000ae000000e8000001220000015c00000196000001d00000020a000002440000027e000002b80000002f20000032c00000366000003a0000003da000004140000044e000004880000004c2000004fc0000053600000570000005aa000005e40000061e0000065800000692000006cc0000070600000740
0000003b00000076000000b1000000ec00000127000001620000019d000001d8000002130000024e00000289000002c4000002ff0000033a00000375000003b0000003eb00000426000004610000049c0000004d7000005120000054d00000588000005c3000005fe0000063900000674000006af000006ea0000072500000760
0000003c00000078000000b4000000f00000012c00000168000001a4000001e00000021c0000025800000294000002d00000030c0000034800000384000003c0000003fc0000043800000474000004b0000004ec0000052800000564000005a0000005dc00000618000006540000069000006cc000007080000074400000780
0000003d0000007a000000b7000000f4000001310000016e000001ab000001e800000225000002620000029f000002dc0000003190000035600000393000003d00000040d0000044a00000487000004c40000005010000053e0000057b000005b8000005f5000006320000066f000006ac000006e90000072600000763000007a0
0000003e0000007c000000ba000000f80000013600000174000001b2000001f00000022e0000026c000002aa000002e800000032600000364000003a2000003e00000041e0000045c0000049a000004d80000005160000055400000592000005d00000060e0000064c0000068a000006c8000007060000074400000782000007c0
0000003f0000007e000000bd000000fc0000013b0000017a000001b9000001f80000023700000276000002b5000002f400000033300000372000003b1000003f00000042f0000046e000004ad000004ec00000052b0000056a000005a9000005e80000062700000666000006a5000006e40000072300000762000007a1000007e0
0000004000000080000000c0000001000000014000000180000001c0000002000000024000000280000002c0000003000000034000000380000003c0000004000000044000000480000004c0000005000000054000000580000005c0000006000000064000000680000006c0000007000000074000000780000007c000000800